#ifndef TEMPERATURE_MODEL_H
#define TEMPERATURE_MODEL_H


unsigned int temperature_model_len = 2148;
unsigned char temperature_model[] = {
 0x1c, 0x00, 0x00, 0x00, 0x54, 0x46, 0x4c, 0x33, 0x14, 0x00, 0x20, 0x00,
  0x1c, 0x00, 0x18, 0x00, 0x14, 0x00, 0x10, 0x00, 0x0c, 0x00, 0x00, 0x00,
  0x08, 0x00, 0x04, 0x00, 0x14, 0x00, 0x00, 0x00, 0x1c, 0x00, 0x00, 0x00,
  0x90, 0x00, 0x00, 0x00, 0xe8, 0x00, 0x00, 0x00, 0x9c, 0x04, 0x00, 0x00,
  0xac, 0x04, 0x00, 0x00, 0x10, 0x08, 0x00, 0x00, 0x03, 0x00, 0x00, 0x00,
  0x01, 0x00, 0x00, 0x00, 0x10, 0x00, 0x00, 0x00, 0x00, 0x00, 0x0a, 0x00,
  0x10, 0x00, 0x0c, 0x00, 0x08, 0x00, 0x04, 0x00, 0x0a, 0x00, 0x00, 0x00,
  0x0c, 0x00, 0x00, 0x00, 0x1c, 0x00, 0x00, 0x00, 0x38, 0x00, 0x00, 0x00,
  0x0f, 0x00, 0x00, 0x00, 0x73, 0x65, 0x72, 0x76, 0x69, 0x6e, 0x67, 0x5f,
  0x64, 0x65, 0x66, 0x61, 0x75, 0x6c, 0x74, 0x00, 0x01, 0x00, 0x00, 0x00,
  0x04, 0x00, 0x00, 0x00, 0x98, 0xff, 0xff, 0xff, 0x06, 0x00, 0x00, 0x00,
  0x04, 0x00, 0x00, 0x00, 0x07, 0x00, 0x00, 0x00, 0x64, 0x65, 0x6e, 0x73,
  0x65, 0x5f, 0x31, 0x00, 0x01, 0x00, 0x00, 0x00, 0x04, 0x00, 0x00, 0x00,
  0x2e, 0xfc, 0xff, 0xff, 0x04, 0x00, 0x00, 0x00, 0x0b, 0x00, 0x00, 0x00,
  0x64, 0x65, 0x6e, 0x73, 0x65, 0x5f, 0x69, 0x6e, 0x70, 0x75, 0x74, 0x00,
  0x02, 0x00, 0x00, 0x00, 0x34, 0x00, 0x00, 0x00, 0x04, 0x00, 0x00, 0x00,
  0xdc, 0xff, 0xff, 0xff, 0x09, 0x00, 0x00, 0x00, 0x04, 0x00, 0x00, 0x00,
  0x13, 0x00, 0x00, 0x00, 0x43, 0x4f, 0x4e, 0x56, 0x45, 0x52, 0x53, 0x49,
  0x4f, 0x4e, 0x5f, 0x4d, 0x45, 0x54, 0x41, 0x44, 0x41, 0x54, 0x41, 0x00,
  0x08, 0x00, 0x0c, 0x00, 0x08, 0x00, 0x04, 0x00, 0x08, 0x00, 0x00, 0x00,
  0x08, 0x00, 0x00, 0x00, 0x04, 0x00, 0x00, 0x00, 0x13, 0x00, 0x00, 0x00,
  0x6d, 0x69, 0x6e, 0x5f, 0x72, 0x75, 0x6e, 0x74, 0x69, 0x6d, 0x65, 0x5f,
  0x76, 0x65, 0x72, 0x73, 0x69, 0x6f, 0x6e, 0x00, 0x0a, 0x00, 0x00, 0x00,
  0xb0, 0x03, 0x00, 0x00, 0xa8, 0x03, 0x00, 0x00, 0x58, 0x03, 0x00, 0x00,
  0x3c, 0x03, 0x00, 0x00, 0xec, 0x00, 0x00, 0x00, 0x9c, 0x00, 0x00, 0x00,
  0x94, 0x00, 0x00, 0x00, 0x8c, 0x00, 0x00, 0x00, 0x6c, 0x00, 0x00, 0x00,
  0x04, 0x00, 0x00, 0x00, 0xce, 0xfc, 0xff, 0xff, 0x04, 0x00, 0x00, 0x00,
  0x58, 0x00, 0x00, 0x00, 0x0c, 0x00, 0x00, 0x00, 0x08, 0x00, 0x0e, 0x00,
  0x08, 0x00, 0x04, 0x00, 0x08, 0x00, 0x00, 0x00, 0x10, 0x00, 0x00, 0x00,
  0x28, 0x00, 0x00, 0x00, 0x00, 0x00, 0x06, 0x00, 0x08, 0x00, 0x04, 0x00,
  0x06, 0x00, 0x00, 0x00, 0x04, 0x00, 0x00, 0x00, 0x01, 0x00, 0x00, 0x00,
  0xea, 0x03, 0x00, 0x00, 0x00, 0x00, 0x0a, 0x00, 0x10, 0x00, 0x0c, 0x00,
  0x08, 0x00, 0x04, 0x00, 0x0a, 0x00, 0x00, 0x00, 0x02, 0x00, 0x00, 0x00,
  0x02, 0x00, 0x00, 0x00, 0x04, 0x00, 0x00, 0x00, 0x05, 0x00, 0x00, 0x00,
  0x32, 0x2e, 0x39, 0x2e, 0x32, 0x00, 0x00, 0x00, 0x32, 0xfd, 0xff, 0xff,
  0x04, 0x00, 0x00, 0x00, 0x10, 0x00, 0x00, 0x00, 0x31, 0x2e, 0x35, 0x2e,
  0x30, 0x00, 0x00, 0x00, 0x00, 0x00, 0x00, 0x00, 0x00, 0x00, 0x00, 0x00,
  0xb0, 0xf9, 0xff, 0xff, 0xb4, 0xf9, 0xff, 0xff, 0x56, 0xfd, 0xff, 0xff,
  0x04, 0x00, 0x00, 0x00, 0x40, 0x00, 0x00, 0x00, 0x05, 0xaa, 0x84, 0x3d,
  0x29, 0x8f, 0x15, 0xbd, 0x08, 0x93, 0xde, 0xbd, 0x55, 0x98, 0x21, 0x3f,
  0x66, 0x42, 0x88, 0x3e, 0xc2, 0x8d, 0x3b, 0xbe, 0xf8, 0x14, 0x2f, 0xbd,
  0x46, 0xde, 0x24, 0x3e, 0x90, 0x19, 0x53, 0xbd, 0xa7, 0x6f, 0xad, 0x3e,
  0x4c, 0xce, 0xbd, 0xbe, 0x00, 0x4a, 0x6d, 0x3d, 0x40, 0x0f, 0x6e, 0x3d,
  0x70, 0x09, 0x71, 0x3d, 0x3e, 0xa0, 0x6d, 0xbe, 0xda, 0xe3, 0xed, 0xbe,
  0xa2, 0xfd, 0xff, 0xff, 0x04, 0x00, 0x00, 0x00, 0x40, 0x02, 0x00, 0x00,
  0x2e, 0x7e, 0x93, 0xbe, 0xbf, 0x53, 0x8f, 0xbc, 0x0f, 0x88, 0x1d, 0x3d,
  0xd5, 0xcb, 0x35, 0x3e, 0xa4, 0x56, 0x9b, 0x3e, 0x78, 0xc9, 0xb4, 0xbe,
  0x53, 0x0b, 0xd5, 0x3d, 0x5a, 0xf9, 0x4e, 0x3e, 0xd8, 0xf4, 0xd8, 0x3e,
  0x12, 0x7e, 0xb8, 0x3e, 0x7e, 0x09, 0x8d, 0xbe, 0x9c, 0xac, 0x6f, 0x3d,
  0x18, 0x75, 0xee, 0x3c, 0x0d, 0x45, 0x65, 0xbc, 0xb7, 0xc7, 0x37, 0x3e,
  0xf4, 0x11, 0xa5, 0xbb, 0x16, 0x91, 0xef, 0x3d, 0xcf, 0xaa, 0x8c, 0xbe,
  0x66, 0x68, 0x03, 0x3e, 0x41, 0xc0, 0xc1, 0x3e, 0xf8, 0x47, 0x26, 0x3d,
  0xa4, 0x02, 0x8e, 0x3d, 0xcb, 0xbd, 0xa9, 0xbe, 0xc2, 0xfe, 0x4d, 0xbe,
  0x80, 0x69, 0xa8, 0xbe, 0x10, 0x49, 0x40, 0xbd, 0x2e, 0xcd, 0x7f, 0x3e,
  0x07, 0x33, 0xe9, 0xbc, 0xdb, 0xa2, 0xd4, 0x3e, 0x7d, 0x4f, 0x9f, 0xbc,
  0x61, 0x15, 0xdb, 0xbe, 0x4d, 0xfd, 0x2e, 0xbe, 0x77, 0x55, 0xd9, 0x3e,
  0xcb, 0xdd, 0x94, 0xbe, 0x88, 0xba, 0xdb, 0x3e, 0x9f, 0x67, 0xbd, 0x3e,
  0xf4, 0xdb, 0x2b, 0xbe, 0x0c, 0xa8, 0xa2, 0x3e, 0x13, 0x6a, 0x2a, 0xbe,
  0x40, 0x40, 0x16, 0x3e, 0x2b, 0x54, 0x5d, 0x3e, 0x99, 0x20, 0x8f, 0x3e,
  0x2e, 0x52, 0x5b, 0xbb, 0x8c, 0x0f, 0x00, 0xbe, 0x5d, 0x19, 0xc3, 0x3c,
  0x52, 0xf9, 0x0e, 0x3e, 0x04, 0xf4, 0xdc, 0xbe, 0x22, 0xb8, 0x6a, 0x3e,
  0xa8, 0xf8, 0x3d, 0xbe, 0x84, 0x40, 0x71, 0xbe, 0x5f, 0xc1, 0x93, 0xbe,
  0x92, 0x07, 0x17, 0xbe, 0x46, 0x71, 0x8c, 0xbe, 0xa8, 0x9b, 0x39, 0xbe,
  0x91, 0x92, 0xdd, 0x3e, 0x20, 0x53, 0xe8, 0xbe, 0x12, 0x2f, 0xc1, 0x3e,
  0xbe, 0x27, 0x39, 0xbd, 0x4c, 0x6e, 0xdd, 0xbe, 0xd3, 0x40, 0x7a, 0x3e,
  0x4c, 0xff, 0xf0, 0x3d, 0xba, 0x79, 0x92, 0xbe, 0xa5, 0x4b, 0x51, 0x3e,
  0x09, 0x18, 0xde, 0xbc, 0xe0, 0xa8, 0x1a, 0xbe, 0xb6, 0x69, 0x4f, 0x3e,
  0x30, 0xf1, 0xca, 0x3c, 0xad, 0x88, 0x7b, 0xbb, 0xb1, 0x42, 0xdf, 0x3e,
  0xd4, 0xfe, 0xe7, 0x3e, 0xc0, 0xe3, 0xb6, 0xbd, 0x66, 0xc5, 0x93, 0xbe,
  0xca, 0xa1, 0x20, 0x3e, 0x23, 0xa4, 0x79, 0xbe, 0x16, 0x6c, 0x8e, 0xbe,
  0x45, 0x78, 0xdd, 0xbe, 0xe7, 0x8a, 0x99, 0x3e, 0x44, 0x1e, 0x8d, 0xbe,
  0xde, 0xf0, 0xc4, 0xbe, 0xc4, 0xee, 0xe4, 0xbe, 0x58, 0x05, 0x22, 0xbd,
  0x01, 0xfd, 0x0d, 0x3e, 0xeb, 0x5f, 0xdf, 0x3e, 0x2c, 0x72, 0x8a, 0xbe,
  0x74, 0x9e, 0xda, 0x3e, 0xfa, 0x9e, 0x62, 0x3e, 0x81, 0x0c, 0x7c, 0x3e,
  0x12, 0xe2, 0xc9, 0xbe, 0x83, 0x60, 0x39, 0xbe, 0x09, 0x08, 0x86, 0x3e,
  0x7a, 0x15, 0x09, 0x3e, 0x10, 0xeb, 0xe4, 0xbc, 0xd4, 0x47, 0xba, 0xbd,
  0x36, 0x95, 0x24, 0xbe, 0x9e, 0x5f, 0x57, 0x3e, 0x24, 0x41, 0x5d, 0xbe,
  0xb0, 0x46, 0x5d, 0xbe, 0x08, 0xf5, 0x96, 0xbe, 0xa7, 0x01, 0x7e, 0xbe,
  0xcc, 0xa7, 0xe5, 0x3d, 0xe1, 0x3b, 0x81, 0xbe, 0x11, 0xfb, 0xf5, 0xbe,
  0x29, 0x13, 0xd2, 0x3e, 0x8e, 0xf9, 0x59, 0x3e, 0x06, 0xd4, 0xcb, 0xbe,
  0xfb, 0xa7, 0xd9, 0xbe, 0x00, 0x54, 0x25, 0xbe, 0xa0, 0x0b, 0x4c, 0xbd,
  0xdf, 0x4f, 0xc3, 0x3e, 0xbe, 0x71, 0x05, 0x3e, 0x40, 0x24, 0x0a, 0xbd,
  0x12, 0x44, 0x16, 0x3e, 0xdb, 0xb6, 0x9a, 0xbe, 0x8f, 0x3f, 0xb9, 0xbe,
  0x21, 0xb8, 0xbd, 0xbe, 0xe0, 0x3d, 0xb1, 0xbc, 0x1e, 0xc0, 0x5c, 0x3e,
  0x4a, 0x2f, 0x00, 0x3e, 0xc4, 0xa1, 0xac, 0x3d, 0x0e, 0x7d, 0x4c, 0xbe,
  0x31, 0x3d, 0xd7, 0x3e, 0x8e, 0x93, 0x2f, 0x3e, 0xc4, 0xef, 0xaa, 0xbe,
  0x00, 0xdb, 0x28, 0xbd, 0x76, 0x45, 0x6c, 0xbe, 0xa9, 0xc1, 0xdc, 0xbe,
  0xfd, 0x5f, 0xe5, 0xbb, 0x67, 0x0f, 0xba, 0x3e, 0xb2, 0xb3, 0x53, 0x3e,
  0xe9, 0xbc, 0xeb, 0xbd, 0x24, 0xaa, 0x99, 0x3e, 0x65, 0x07, 0xc0, 0xbe,
  0x56, 0xdb, 0x63, 0xbe, 0x64, 0x9e, 0x60, 0xbe, 0x5d, 0x11, 0x20, 0x3d,
  0xaf, 0xcb, 0xed, 0xbe, 0x7c, 0xc0, 0x8c, 0x3d, 0x70, 0xc1, 0xaf, 0x3c,
  0x17, 0x10, 0xd6, 0xbe, 0x4c, 0x6d, 0x50, 0xbe, 0x6d, 0xd7, 0xac, 0x3e,
  0x60, 0x4c, 0x0c, 0xbd, 0xc4, 0xd9, 0xb1, 0xbd, 0x32, 0xd6, 0xe4, 0xbe,
  0xee, 0xff, 0xff, 0xff, 0x04, 0x00, 0x00, 0x00, 0x04, 0x00, 0x00, 0x00,
  0x19, 0xe6, 0x16, 0x3d, 0x00, 0x00, 0x06, 0x00, 0x08, 0x00, 0x04, 0x00,
  0x06, 0x00, 0x00, 0x00, 0x04, 0x00, 0x00, 0x00, 0x40, 0x00, 0x00, 0x00,
  0xe2, 0x0f, 0x32, 0x3d, 0x2c, 0xc5, 0x0a, 0xbd, 0x00, 0x00, 0x00, 0x00,
  0x9c, 0x16, 0x18, 0x3d, 0x13, 0x07, 0x1a, 0x3d, 0x00, 0x00, 0x00, 0x00,
  0x0d, 0x87, 0x0c, 0xbd, 0x60, 0x75, 0x1c, 0x3d, 0x00, 0x00, 0x00, 0x00,
  0xcf, 0x32, 0x19, 0x3d, 0x00, 0x00, 0x00, 0x00, 0x00, 0x00, 0x00, 0x00,
  0x00, 0x00, 0x00, 0x00, 0x00, 0x00, 0x00, 0x00, 0xad, 0x08, 0x1d, 0xbd,
  0x00, 0x00, 0x00, 0x00, 0xb4, 0xfc, 0xff, 0xff, 0xb8, 0xfc, 0xff, 0xff,
  0x0f, 0x00, 0x00, 0x00, 0x4d, 0x4c, 0x49, 0x52, 0x20, 0x43, 0x6f, 0x6e,
  0x76, 0x65, 0x72, 0x74, 0x65, 0x64, 0x2e, 0x00, 0x01, 0x00, 0x00, 0x00,
  0x14, 0x00, 0x00, 0x00, 0x00, 0x00, 0x0e, 0x00, 0x18, 0x00, 0x14, 0x00,
  0x10, 0x00, 0x0c, 0x00, 0x08, 0x00, 0x04, 0x00, 0x0e, 0x00, 0x00, 0x00,
  0x14, 0x00, 0x00, 0x00, 0x1c, 0x00, 0x00, 0x00, 0xa0, 0x00, 0x00, 0x00,
  0xa4, 0x00, 0x00, 0x00, 0xa8, 0x00, 0x00, 0x00, 0x04, 0x00, 0x00, 0x00,
  0x6d, 0x61, 0x69, 0x6e, 0x00, 0x00, 0x00, 0x00, 0x02, 0x00, 0x00, 0x00,
  0x48, 0x00, 0x00, 0x00, 0x04, 0x00, 0x00, 0x00, 0xce, 0xff, 0xff, 0xff,
  0x10, 0x00, 0x00, 0x00, 0x00, 0x00, 0x00, 0x08, 0x0c, 0x00, 0x00, 0x00,
  0x10, 0x00, 0x00, 0x00, 0x2c, 0xfd, 0xff, 0xff, 0x01, 0x00, 0x00, 0x00,
  0x06, 0x00, 0x00, 0x00, 0x03, 0x00, 0x00, 0x00, 0x05, 0x00, 0x00, 0x00,
  0x04, 0x00, 0x00, 0x00, 0x02, 0x00, 0x00, 0x00, 0x00, 0x00, 0x0e, 0x00,
  0x16, 0x00, 0x00, 0x00, 0x10, 0x00, 0x0c, 0x00, 0x0b, 0x00, 0x04, 0x00,
  0x0e, 0x00, 0x00, 0x00, 0x18, 0x00, 0x00, 0x00, 0x00, 0x00, 0x00, 0x08,
  0x18, 0x00, 0x00, 0x00, 0x1c, 0x00, 0x00, 0x00, 0x00, 0x00, 0x06, 0x00,
  0x08, 0x00, 0x07, 0x00, 0x06, 0x00, 0x00, 0x00, 0x00, 0x00, 0x00, 0x01,
  0x01, 0x00, 0x00, 0x00, 0x05, 0x00, 0x00, 0x00, 0x03, 0x00, 0x00, 0x00,
  0x00, 0x00, 0x00, 0x00, 0x03, 0x00, 0x00, 0x00, 0x01, 0x00, 0x00, 0x00,
  0x01, 0x00, 0x00, 0x00, 0x06, 0x00, 0x00, 0x00, 0x01, 0x00, 0x00, 0x00,
  0x00, 0x00, 0x00, 0x00, 0x07, 0x00, 0x00, 0x00, 0x34, 0x02, 0x00, 0x00,
  0xd0, 0x01, 0x00, 0x00, 0x6c, 0x01, 0x00, 0x00, 0x28, 0x01, 0x00, 0x00,
  0xe0, 0x00, 0x00, 0x00, 0x5c, 0x00, 0x00, 0x00, 0x04, 0x00, 0x00, 0x00,
  0xfc, 0xfd, 0xff, 0xff, 0x14, 0x00, 0x00, 0x00, 0x1c, 0x00, 0x00, 0x00,
  0x1c, 0x00, 0x00, 0x00, 0x07, 0x00, 0x00, 0x00, 0x34, 0x00, 0x00, 0x00,
  0x02, 0x00, 0x00, 0x00, 0xff, 0xff, 0xff, 0xff, 0x01, 0x00, 0x00, 0x00,
  0xe8, 0xfd, 0xff, 0xff, 0x19, 0x00, 0x00, 0x00, 0x53, 0x74, 0x61, 0x74,
  0x65, 0x66, 0x75, 0x6c, 0x50, 0x61, 0x72, 0x74, 0x69, 0x74, 0x69, 0x6f,
  0x6e, 0x65, 0x64, 0x43, 0x61, 0x6c, 0x6c, 0x3a, 0x30, 0x00, 0x00, 0x00,
  0x02, 0x00, 0x00, 0x00, 0x01, 0x00, 0x00, 0x00, 0x01, 0x00, 0x00, 0x00,
  0x50, 0xfe, 0xff, 0xff, 0x14, 0x00, 0x00, 0x00, 0x1c, 0x00, 0x00, 0x00,
  0x1c, 0x00, 0x00, 0x00, 0x06, 0x00, 0x00, 0x00, 0x60, 0x00, 0x00, 0x00,
  0x02, 0x00, 0x00, 0x00, 0xff, 0xff, 0xff, 0xff, 0x10, 0x00, 0x00, 0x00,
  0x3c, 0xfe, 0xff, 0xff, 0x46, 0x00, 0x00, 0x00, 0x73, 0x65, 0x71, 0x75,
  0x65, 0x6e, 0x74, 0x69, 0x61, 0x6c, 0x2f, 0x64, 0x65, 0x6e, 0x73, 0x65,
  0x2f, 0x4d, 0x61, 0x74, 0x4d, 0x75, 0x6c, 0x3b, 0x73, 0x65, 0x71, 0x75,
  0x65, 0x6e, 0x74, 0x69, 0x61, 0x6c, 0x2f, 0x64, 0x65, 0x6e, 0x73, 0x65,
  0x2f, 0x52, 0x65, 0x6c, 0x75, 0x3b, 0x73, 0x65, 0x71, 0x75, 0x65, 0x6e,
  0x74, 0x69, 0x61, 0x6c, 0x2f, 0x64, 0x65, 0x6e, 0x73, 0x65, 0x2f, 0x42,
  0x69, 0x61, 0x73, 0x41, 0x64, 0x64, 0x00, 0x00, 0x02, 0x00, 0x00, 0x00,
  0x01, 0x00, 0x00, 0x00, 0x10, 0x00, 0x00, 0x00, 0x2a, 0xff, 0xff, 0xff,
  0x10, 0x00, 0x00, 0x00, 0x10, 0x00, 0x00, 0x00, 0x05, 0x00, 0x00, 0x00,
  0x28, 0x00, 0x00, 0x00, 0xac, 0xfe, 0xff, 0xff, 0x19, 0x00, 0x00, 0x00,
  0x73, 0x65, 0x71, 0x75, 0x65, 0x6e, 0x74, 0x69, 0x61, 0x6c, 0x2f, 0x64,
  0x65, 0x6e, 0x73, 0x65, 0x5f, 0x31, 0x2f, 0x4d, 0x61, 0x74, 0x4d, 0x75,
  0x6c, 0x00, 0x00, 0x00, 0x02, 0x00, 0x00, 0x00, 0x01, 0x00, 0x00, 0x00,
  0x10, 0x00, 0x00, 0x00, 0x6e, 0xff, 0xff, 0xff, 0x10, 0x00, 0x00, 0x00,
  0x10, 0x00, 0x00, 0x00, 0x04, 0x00, 0x00, 0x00, 0x24, 0x00, 0x00, 0x00,
  0xf0, 0xfe, 0xff, 0xff, 0x17, 0x00, 0x00, 0x00, 0x73, 0x65, 0x71, 0x75,
  0x65, 0x6e, 0x74, 0x69, 0x61, 0x6c, 0x2f, 0x64, 0x65, 0x6e, 0x73, 0x65,
  0x2f, 0x4d, 0x61, 0x74, 0x4d, 0x75, 0x6c, 0x00, 0x02, 0x00, 0x00, 0x00,
  0x10, 0x00, 0x00, 0x00, 0x09, 0x00, 0x00, 0x00, 0xae, 0xff, 0xff, 0xff,
  0x10, 0x00, 0x00, 0x00, 0x10, 0x00, 0x00, 0x00, 0x03, 0x00, 0x00, 0x00,
  0x38, 0x00, 0x00, 0x00, 0x30, 0xff, 0xff, 0xff, 0x29, 0x00, 0x00, 0x00,
  0x73, 0x65, 0x71, 0x75, 0x65, 0x6e, 0x74, 0x69, 0x61, 0x6c, 0x2f, 0x64,
  0x65, 0x6e, 0x73, 0x65, 0x5f, 0x31, 0x2f, 0x42, 0x69, 0x61, 0x73, 0x41,
  0x64, 0x64, 0x2f, 0x52, 0x65, 0x61, 0x64, 0x56, 0x61, 0x72, 0x69, 0x61,
  0x62, 0x6c, 0x65, 0x4f, 0x70, 0x00, 0x00, 0x00, 0x01, 0x00, 0x00, 0x00,
  0x01, 0x00, 0x00, 0x00, 0x00, 0x00, 0x0e, 0x00, 0x14, 0x00, 0x10, 0x00,
  0x00, 0x00, 0x0c, 0x00, 0x08, 0x00, 0x04, 0x00, 0x0e, 0x00, 0x00, 0x00,
  0x10, 0x00, 0x00, 0x00, 0x10, 0x00, 0x00, 0x00, 0x02, 0x00, 0x00, 0x00,
  0x34, 0x00, 0x00, 0x00, 0x90, 0xff, 0xff, 0xff, 0x27, 0x00, 0x00, 0x00,
  0x73, 0x65, 0x71, 0x75, 0x65, 0x6e, 0x74, 0x69, 0x61, 0x6c, 0x2f, 0x64,
  0x65, 0x6e, 0x73, 0x65, 0x2f, 0x42, 0x69, 0x61, 0x73, 0x41, 0x64, 0x64,
  0x2f, 0x52, 0x65, 0x61, 0x64, 0x56, 0x61, 0x72, 0x69, 0x61, 0x62, 0x6c,
  0x65, 0x4f, 0x70, 0x00, 0x01, 0x00, 0x00, 0x00, 0x10, 0x00, 0x00, 0x00,
  0x14, 0x00, 0x18, 0x00, 0x14, 0x00, 0x00, 0x00, 0x10, 0x00, 0x0c, 0x00,
  0x08, 0x00, 0x00, 0x00, 0x00, 0x00, 0x04, 0x00, 0x14, 0x00, 0x00, 0x00,
  0x14, 0x00, 0x00, 0x00, 0x20, 0x00, 0x00, 0x00, 0x20, 0x00, 0x00, 0x00,
  0x01, 0x00, 0x00, 0x00, 0x3c, 0x00, 0x00, 0x00, 0x02, 0x00, 0x00, 0x00,
  0xff, 0xff, 0xff, 0xff, 0x09, 0x00, 0x00, 0x00, 0x04, 0x00, 0x04, 0x00,
  0x04, 0x00, 0x00, 0x00, 0x1d, 0x00, 0x00, 0x00, 0x73, 0x65, 0x72, 0x76,
  0x69, 0x6e, 0x67, 0x5f, 0x64, 0x65, 0x66, 0x61, 0x75, 0x6c, 0x74, 0x5f,
  0x64, 0x65, 0x6e, 0x73, 0x65, 0x5f, 0x69, 0x6e, 0x70, 0x75, 0x74, 0x3a,
  0x30, 0x00, 0x00, 0x00, 0x02, 0x00, 0x00, 0x00, 0x01, 0x00, 0x00, 0x00,
  0x09, 0x00, 0x00, 0x00, 0x01, 0x00, 0x00, 0x00, 0x10, 0x00, 0x00, 0x00,
  0x0c, 0x00, 0x0c, 0x00, 0x0b, 0x00, 0x00, 0x00, 0x00, 0x00, 0x04, 0x00,
  0x0c, 0x00, 0x00, 0x00, 0x09, 0x00, 0x00, 0x00, 0x00, 0x00, 0x00, 0x09
 
};

#endif //TEMPERATURE_MODEL_H